{"type": "bpe_bytelevel", "vocab": {"<|endoftext|>": 0, "!": 1, "\"": 2, "#": 3, "$": 4, "%": 5, "&": 6, "'": 7, "(": 8, ")": 9, "*": 10, "+": 11, ",": 12, "-": 13, ".": 14, "/": 15, "0": 16, "1": 17, "2": 18, "3": 19, "4": 20, "5": 21, "6": 22, "7": 23, "8": 24, "9": 25, ":": 26, ";": 27, "<": 28, "=": 29, ">": 30, "?": 31, "@": 32, "A": 33, "B": 34, "C": 35, "D": 36, "E": 37, "F": 38, "G": 39, "H": 40, "I": 41, "J": 42, "K": 43, "L": 44, "M": 45, "N": 46, "O": 47, "P": 48, "Q": 49, "R": 50, "S": 51, "T": 52, "U": 53, "V": 54, "W": 55, "X": 56, "Y": 57, "Z": 58, "[": 59, "\\": 60, "]": 61, "^": 62, "_": 63, "`": 64, "a": 65, "b": 66, "c": 67, "d": 68, "e": 69, "f": 70, "g": 71, "h": 72, "i": 73, "j": 74, "k": 75, "l": 76, "m": 77, "n": 78, "o": 79, "p": 80, "q": 81, "r": 82, "s": 83, "t": 84, "u": 85, "v": 86, "w": 87, "x": 88, "y": 89, "z": 90, "{": 91, "|": 92, "}": 93, "~": 94, "\u00a1": 95, "\u00a2": 96, "\u00a3": 97, "\u00a4": 98, "\u00a5": 99, "\u00a6": 100, "\u00a7": 101, "\u00a8": 102, "\u00a9": 103, "\u00aa": 104, "\u00ab": 105, "\u00ac": 106, "\u00ae": 107, "\u00af": 108, "\u00b0": 109, "\u00b1": 110, "\u00b2": 111, "\u00b3": 112, "\u00b4": 113, "\u00b5": 114, "\u00b6": 115, "\u00b7": 116, "\u00b8": 117, "\u00b9": 118, "\u00ba": 119, "\u00bb": 120, "\u00bc": 121, "\u00bd": 122, "\u00be": 123, "\u00bf": 124, "\u00c0": 125, "\u00c1": 126, "\u00c2": 127, "\u00c3": 128, "\u00c4": 129, "\u00c5": 130, "\u00c6": 131, "\u00c7": 132, "\u00c8": 133, "\u00c9": 134, "\u00ca": 135, "\u00cb": 136, "\u00cc": 137, "\u00cd": 138, "\u00ce": 139, "\u00cf": 140, "\u00d0": 141, "\u00d1": 142, "\u00d2": 143, "\u00d3": 144, "\u00d4": 145, "\u00d5": 146, "\u00d6": 147, "\u00d7": 148, "\u00d8": 149, "\u00d9": 150, "\u00da": 151, "\u00db": 152, "\u00dc": 153, "\u00dd": 154, "\u00de": 155, "\u00df": 156, "\u00e0": 157, "\u00e1": 158, "\u00e2": 159, "\u00e3": 160, "\u00e4": 161, "\u00e5": 162, "\u00e6": 163, "\u00e7": 164, "\u00e8": 165, "\u00e9": 166, "\u00ea": 167, "\u00eb": 168, "\u00ec": 169, "\u00ed": 170, "\u00ee": 171, "\u00ef": 172, "\u00f0": 173, "\u00f1": 174, "\u00f2": 175, "\u00f3": 176, "\u00f4": 177, "\u00f5": 178, "\u00f6": 179, "\u00f7": 180, "\u00f8": 181, "\u00f9": 182, "\u00fa": 183, "\u00fb": 184, "\u00fc": 185, "\u00fd": 186, "\u00fe": 187, "\u00ff": 188, "\u0100": 189, "\u0101": 190, "\u0102": 191, "\u0103": 192, "\u0104": 193, "\u0105": 194, "\u0106": 195, "\u0107": 196, "\u0108": 197, "\u0109": 198, "\u010a": 199, "\u010b": 200, "\u010c": 201, "\u010d": 202, "\u010e": 203, "\u010f": 204, "\u0110": 205, "\u0111": 206, "\u0112": 207, "\u0113": 208, "\u0114": 209, "\u0115": 210, "\u0116": 211, "\u0117": 212, "\u0118": 213, "\u0119": 214, "\u011a": 215, "\u011b": 216, "\u011c": 217, "\u011d": 218, "\u011e": 219, "\u011f": 220, "\u0120": 221, "\u0121": 222, "\u0122": 223, "\u0123": 224, "\u0124": 225, "\u0125": 226, "\u0126": 227, "\u0127": 228, "\u0128": 229, "\u0129": 230, "\u012a": 231, "\u012b": 232, "\u012c": 233, "\u012d": 234, "\u012e": 235, "\u012f": 236, "\u0130": 237, "\u0131": 238, "\u0132": 239, "\u0133": 240, "\u0134": 241, "\u0135": 242, "\u0136": 243, "\u0137": 244, "\u0138": 245, "\u0139": 246, "\u013a": 247, "\u013b": 248, "\u013c": 249, "\u013d": 250, "\u013e": 251, "\u013f": 252, "\u0140": 253, "\u0141": 254, "\u0142": 255, "\u0143": 256, "\u0120t": 257, "he": 258, "\u0120a": 259, "\u0120s": 260, "nd": 261, "\u0120w": 262, "\u0120the": 263, "ed": 264, "\u0120b": 265, "\u0120to": 266, "\u0120and": 267, "\u0120h": 268, "\u0120f": 269, "in": 270, "\u0120T": 271, "\u0120wa": 272, "re": 273, "it": 274, "ou": 275, "\u0120l": 276, "\u0120d": 277, "\u0120c": 278, "\u0120p": 279, "ay": 280, "\u0120m": 281, "er": 282, "\u0120was": 283, "om": 284, "\u0120The": 285, "\u0120he": 286, "is": 287, "ar": 288, "\u0120n": 289, "im": 290, "on": 291, "\u0120sa": 292, "id": 293, "ll": 294, "\u0120ha": 295, "\u0120g": 296, "at": 297, "\u0120S": 298, "ing": 299, "ot": 300, "en": 301, "an": 302, "le": 303, "or": 304, "end": 305, "ir": 306, "of": 307, "am": 308, "et": 309, "\u0120H": 310, "\u0120it": 311, "\u0120th": 312, "ig": 313, "\u0120They": 314, "\u0120in": 315, "il": 316, "\u0120pl": 317, "\u0120He": 318, "\u0120\"": 319, "ow": 320, "ri": 321, "ver": 322, "ut": 323, "\u0120be": 324, "\u0120u": 325, "\u0120said": 326, "\u0120play": 327, "ith": 328, "\u0120day": 329, "\u0120with": 330, "pp": 331, "On": 332, "\u0120y": 333, "oo": 334, "ked": 335, "\u0120r": 336, "ex": 337, "\u0120her": 338, "ce": 339, "\u0120I": 340, "\u0120She": 341, "ld": 342, "\u0120Tim": 343, "\u0120his": 344, "\u0120st": 345, "ke": 346, "\u0120big": 347, "nt": 348, "ck": 349, "\u0120you": 350, "very": 351, "st": 352, "ve": 353, "\u0120on": 354, "un": 355, "\u0120happ": 356, "riend": 357, "\u0120friend": 358, "all": 359, "ily": 360, "ext": 361, "\u0120L": 362, "\u0120they": 363, "oft": 364, "\u0120we": 365, "\u0120had": 366, "\u0120not": 367, "\u0120li": 368, "\u0120up": 369, "her": 370, "\u0120want": 371, "\u0120of": 372, "ad": 373, "itt": 374, "<|": 375, "|>": 376, "endoft": 377, "endoftext": 378, "se": 379, "\u0120B": 380, "\u0120do": 381, "\u0120e": 382, "\u0120happy": 383, "ent": 384, "\u0120M": 385, "\u0120very": 386, "es": 387, "\u0120that": 388, "\u0120saw": 389, "One": 390, "'s": 391, "ould": 392, "\u0120mom": 393, "\u0120for": 394, "\u0120sh": 395, "ittle": 396, "\u0120little": 397, "\u0120she": 398, "ime": 399, "ch": 400, "\u0120nam": 401, ".\"": 402, "\u0120time": 403, "\u0120k": 404, "\u0120so": 405, "ound": 406, "\u0120there": 407, "\u0120named": 408, "\u0120sm": 409, "\u0120bo": 410, "\u0120Lily": 411, "\u0120were": 412, "\u0120ne": 413, "\u0120wanted": 414, "out": 415, "\u0120but": 416, "\u0120friends": 417, "The": 418, "ved": 419, "!\"": 420, "ht": 421, "\u0120Tom": 422, "ird": 423, "el": 424, "al": 425, "\u0120bird": 426, "\u0120an": 427, "ake": 428, "\u0120too": 429, "ome": 430, "ug": 431, "\u0120It": 432, "ide": 433, "\u0120went": 434, "\u0120wh": 435, "\u0120hel": 436, "Once": 437, "\u0120is": 438, "\u0120all": 439, "ue": 440, "\u0120help": 441, "\u0120loo": 442, "\u0120lo": 443, "ter": 444, "\u0120A": 445, "\u0120upon": 446, "ry": 447, "ore": 448, "ind": 449, "\u0120fun": 450, "get": 451, "\u0120toy": 452, "ill": 453, "ame": 454, "\u0120as": 455, "\u0120at": 456, "ra": 457, "\u0120j": 458, "\u0120did": 459, "gether": 460, "\u0120re": 461, "ur": 462, "\u0120o": 463, "\u0120together": 464, "\u0120se": 465, "ack": 466, "\u0120cat": 467, "ly": 468, "\u0120tre": 469, "ood": 470, "ic": 471, "\u0120dog": 472, "ted": 473, "\u0120could": 474, "\u0120can": 475, "\u0120their": 476, "ard": 477, "ark": 478, "ec": 479, "\u0120gir": 480, "\u0120played": 481, "\u0120ball": 482, "\u0120him": 483, "?\"": 484, "\u0120girl": 485, "\u0120ro": 486, "way": 487, "\u0120go": 488, "hed": 489, "\u0120out": 490, "my": 491, "\u0120are": 492, "\u0120le": 493, "ain": 494, "\u0120fr": 495, "hen": 496, "\u0120kn": 497, "'t": 498, "um": 499, "\u0120them": 500, "ax": 501, "\u0120sad": 502, "ul": 503, "\u0120boy": 504, "\u0120tree": 505, "other": 506, "\u0120have": 507, "\u0120man": 508, "\u0120cl": 509, "\u0120looked": 510, "\u0120loved": 511, "oug": 512, "\u0120found": 513, "\u0120sp": 514, "\u0120star": 515, "\u0120Sue": 516, "one": 517, "hing": 518, "\u0120sc": 519, "\u0120back": 520, "\u0120Max": 521, "own": 522, "are": 523, "\u0120like": 524, "side": 525, "ful": 526, "\u0120bec": 527, "\u0120me": 528, "ight": 529, "ong": 530, "\u0120car": 531, "\u0120park": 532, "op": 533, "elt": 534, "\u0120liked": 535, "\u0120One": 536, "\u0120would": 537, "round": 538, "\u0120make": 539, "\u0120la": 540, "\u0120fa": 541, "\u0120felt": 542, "ell": 543, "You": 544, "\u0120W": 545, "\u0120see": 546, "omet": 547, "\u0120But": 548, "\u0120asked": 549, "ag": 550, "\u0120new": 551, "\u0120no": 552, "ouse": 553, "\u0120Sam": 554, "\u0120started": 555, "ice": 556, "ared": 557, "\u0120came": 558, "\u0120Ben": 559, "\u0120other": 560, "\u0120al": 561, "ought": 562, "iled": 563, "\u0120ag": 564, "\u0120somet": 565, "\u0120good": 566, "\u0120small": 567, "\u0120br": 568, "ss": 569, "\u0120smiled": 570, "\u0120say": 571, "ade": 572, "ried": 573, "ings": 574, "\u0120\u010a": 575, "ob": 576, "pot": 577, "\u0120wor": 578, "\u0120find": 579, "\u0120away": 580, "\u0120ex": 581, "\u0120put": 582, "\u0120something": 583, "ia": 584, "\u0120what": 585, "\u0120made": 586, "\u0120from": 587, "ty": 588, "\u0120thought": 589, "ened": 590, "\u0120home": 591, "\u0120playing": 592, "\u0120co": 593, "\u0120every": 594, "\u0120wal": 595, "ook": 596, "\u0120mu": 597, "ach": 598, "uc": 599, "arn": 600, "\u0120ran": 601, "\u0120Spot": 602, "\u0120F": 603, "ile": 604, "\u0120J": 605, "ie": 606, "\u0120again": 607, "ave": 608, "\u0120some": 609, "dd": 610, "\u0120house": 611, "\u0120laug": 612, "\u0120down": 613, "\u0120fl": 614, "king": 615, "\u0120scared": 616, "\u0120took": 617, "ny": 618, "ure": 619, "\u0120pr": 620, "ick": 621, "\u0120toys": 622, "\u0120learn": 623, "\u0120box": 624, "\u0120will": 625, "if": 626, "\u0120You": 627, "\u0120around": 628, "ab": 629, "\u0120my": 630, "ret": 631, "\u0120things": 632, "\u0120your": 633, "\u0120bl": 634, "ep": 635, "oud": 636, "uck": 637, "\u0120when": 638, "\u0120fe": 639, "ish": 640, "\u0120lived": 641, "\u0120sun": 642, "\u0120then": 643, "\u0120sw": 644, "as": 645, "us": 646, ",\"": 647, "pped": 648, "\u0120ch": 649, "\u0120ab": 650, "ank": 651, "\u0120Mia": 652, "\u0120get": 653, "Tim": 654, "ump": 655, "\u0120lot": 656, "Th": 657, "ucy": 658, "ist": 659, "oth": 660, "ap": 661, "\u0120tried": 662, "\u0120got": 663, "\u0120know": 664, "\u0120says": 665, "\u0120who": 666, "ited": 667, "ust": 668, "\u0120kne": 669, "\u0120many": 670, "nder": 671, "\u0120about": 672, "\u0120int": 673, "Lily": 674, "\u0120pret": 675, "\u0120any": 676, "\u0120dec": 677, "\u0120red": 678, "\u0120D": 679, "ive": 680, "\u0120knew": 681, "ise": 682, "ous": 683, "ace": 684, "\u0120more": 685, "\u0120pic": 686, "\u0120care": 687, "\u0120hug": 688, "\u0120v": 689, "ally": 690, "au": 691, "qu": 692, "\u0120water": 693, "\u0120learned": 694, "fter": 695, "\u0120best": 696, "\u0120became": 697, "\u0120po": 698, "\u0120Lucy": 699, "\u0120op": 700, "ause": 701, "\u0120outside": 702, "\u00e2\u0122": 703, "\u0120gre": 704, "\u0120exc": 705, "urp": 706, "\u0120laughed": 707, "ways": 708, "\u0120look": 709, "\u0120always": 710, "\u0120show": 711, "\u0120decid": 712, "\u0120Bob": 713, "\u0120un": 714, "\u0120So": 715, "\u0120room": 716, "\u0120ho": 717, "\u0120because": 718, "\u0120decided": 719, "fe": 720, "\u0120eat": 721, "ite": 722, "\u0120into": 723, "\u0120both": 724, "ant": 725, "\u0120jump": 726, "\u0120And": 727, "\u0120Mom": 728, "ers": 729, "\u0120pe": 730, "udd": 731, "They": 732, "\u0120dad": 733, "\u0120one": 734, "nn": 735, "\u0120ke": 736, "\u0120feel": 737, "\u0120nice": 738, "\u0120excited": 739, "\u0120this": 740, "\u0120fast": 741, "\u0120E": 742, "Yes": 743, "\u0120long": 744, "Tom": 745, "\u0120run": 746, "\u0120sk": 747, "\u0120told": 748, "urpr": 749, "\u0120am": 750, "\u0120inside": 751, "ull": 752, "\u0120tr": 753, "our": 754, "\u0120surpr": 755, "\u0120mo": 756, "ink": 757, "\u0120pretty": 758, "iny": 759, "\u0120sor": 760, "\u0120take": 761, "Wh": 762, "nna": 763, "og": 764, "\u0120gra": 765, "\u0120each": 766, "\u0120sl": 767, "lew": 768, "\u0120gave": 769, "\u0120str": 770, "\u0120much": 771, "\u0120how": 772, "ged": 773, "imal": 774, "\u0120animal": 775, "\u0120rock": 776, "ara": 777, "\u0120need": 778, "etter": 779, "\u0120or": 780, "But": 781, "\u0120than": 782, "\u0120tow": 783, "ven": 784, "\u0120C": 785, "\u0120under": 786, "\u0120old": 787, "ess": 788, "\u0120sorry": 789, "ge": 790, "ised": 791, "ro": 792, "urt": 793, "\u0120cle": 794, "\u0120walked": 795, "and": 796, "\u0120fish": 797, "\u0120clo": 798, "\u0120hand": 799, "\u0120bear": 800, "\u0120ta": 801, "ase": 802, "\u0120His": 803, "\u0120kind": 804, "urn": 805, "\u0120We": 806, "here": 807, "\u0120just": 808, "\u0120flow": 809, "\u0120happened": 810, "\u0120didn": 811, "\u0120te": 812, "pl": 813, "\u0120food": 814, "\u0120list": 815, "\u0120animals": 816, "\u0120try": 817, "\u0120hig": 818, "\u0120ide": 819, "\u0120wat": 820, "\u0120near": 821, "ine": 822, "\u0120sky": 823, "ched": 824, "\u0120sn": 825, "ving": 826, "rom": 827, "\u0120fi": 828, "\u0120idea": 829, "\u0120us": 830, "\u0120better": 831, "\u0120heard": 832, "\u0120tw": 833, "\u0120bug": 834, "\u0120Amy": 835, "gry": 836, "\u0120its": 837, "ff": 838, "\u0120let": 839, "pec": 840, "ate": 841, "\u0120en": 842, "\u0120share": 843, "able": 844, "\u0120careful": 845, "Thank": 846, "\u0120if": 847, "\u0120fly": 848, "Mom": 849, "\u0120stor": 850, "ial": 851, "\u0120Th": 852, "\u0120flew": 853, "more": 854, "\u0120anymore": 855, "\u0120spec": 856, "\u0120special": 857, "lf": 858, "\u0120com": 859, "\u0120lots": 860, "ion": 861, "\u0120never": 862, "\u0120dan": 863, "\u0120by": 864, "\u0120wind": 865, "\u0120don": 866, "\u0120fo": 867, "\u0120tal": 868, "ream": 869, "\u0120clean": 870, "\u0120bu": 871, "\u0120gr": 872, "\u0120love": 873, "rm": 874, "\u0120end": 875, "\u0120Then": 876, "ber": 877, "ort": 878, "\u0120even": 879, "ople": 880, "\u0120fore": 881, "\u0120mag": 882, "udden": 883, "\u0120over": 884, "\u0120cake": 885, "\u0120shiny": 886, "\u0120hard": 887, "\u0120Anna": 888, "\u0120turn": 889, "\u0120col": 890, "\u0120after": 891, "\u0120bad": 892, "\u0120book": 893, "uddenly": 894, "\u0120safe": 895, "ady": 896, "Let": 897, "\u0120fam": 898, "\u0120hurt": 899, "\u0120surprised": 900, "\u0120proud": 901, "imb": 902, "pected": 903, "\u0120high": 904, "\u0120Every": 905, "bb": 906, "\u0120people": 907, "\u0120cu": 908, "\u0120door": 909, "\u0120climb": 910, "arden": 911, "\u0120garden": 912, "\u0120ground": 913, "\u0120come": 914, "\u0120gl": 915, "\u0120opened": 916, "\u0120picked": 917, "\u0120loud": 918, "expected": 919, "\u0120unexpected": 920, "\u0120bea": 921, "\u0120che": 922, "As": 923, "ild": 924, "\u0120blue": 925, "\u0120give": 926, "\u0120way": 927, "\u0120im": 928, "'m": 929, "\u0120hugged": 930, "\u0120still": 931, "\u0120color": 932, "\u0120thanked": 933, "\u0120ever": 934, "\u0120From": 935, "\u0120far": 936, "\u0120call": 937, "\u0120Her": 938, "\u0120When": 939, "\u0120off": 940, "ip": 941, "\u0120K": 942, "No": 943, "ummy": 944, "age": 945, "\u0120Sara": 946, "\u0120magic": 947, "iz": 948, "ough": 949, "\u0120jumped": 950, "\u0120should": 951, "ool": 952, "\u0120kid": 953, "uff": 954, "\u0120family": 955, "\u0120smile": 956, "kay": 957, "\u0120par": 958, "\u0120walk": 959, "hes": 960, "\u0120place": 961, "ct": 962, "\u0120now": 963, "\u0120In": 964, "\u0120great": 965, "\u0120ma": 966, "\u0120qu": 967, "les": 968, "itty": 969, "\u0120stay": 970, "\u0120pa": 971, "em": 972, "\u0120strong": 973, "\u0120sto": 974, "\u0120forest": 975, "ture": 976, "\u0120unt": 977, "\u0120bra": 978, "ane": 979, "\u0120stick": 980, "\u0120P": 981, "\u0120bro": 982, "\u0120beaut": 983, "\u0120until": 984, "\u0120boat": 985, "dy": 986, "\u0120frog": 987, "oon": 988, "\u0120squ": 989, "\u0120next": 990, "ning": 991, "ak": 992, "lease": 993, "\u0120happily": 994, "\u0120kids": 995, "\u0120app": 996, "iful": 997, "\u0120listen": 998, "\u0120beautiful": 999, "ies": 1000, "unny": 1001, "th": 1002, "oy": 1003, "\u0120dra": 1004, "\u0120clos": 1005, "\u0120helped": 1006, "\u0120showed": 1007, "\u0120story": 1008, "\u0120while": 1009, "\u0120rain": 1010, "be": 1011, "\u0120tra": 1012, "rel": 1013, "\u0120picture": 1014, "\u0120imp": 1015, "\u0120town": 1016, "pt": 1017, "\u0120being": 1018, "ress": 1019, "It": 1020, "ary": 1021, "\u0120everyone": 1022, "\u0120mor": 1023, "\u0120hat": 1024, "ree": 1025, "\u0120ad": 1026, "\u0120rem": 1027, "\u0120stopped": 1028, "\u0120game": 1029, "\u0120met": 1030, "\u0120called": 1031, "\u0120wo": 1032, "Now": 1033, "He": 1034, "Can": 1035, "uffy": 1036, "\u0120ca": 1037, "\u0120soft": 1038, "\u0120angry": 1039, "\u0120truck": 1040, "\u0120open": 1041, "\u0120cry": 1042, "\u0120yummy": 1043, "When": 1044, "ger": 1045, "by": 1046, "\u0120bed": 1047, "\u0120Kitty": 1048, "\u0120Let": 1049, "vent": 1050, "\u0120lost": 1051, "\u0120keep": 1052, "\u0120warm": 1053, "\u0120Sally": 1054, "\u0120brave": 1055, "\u0120Wh": 1056, "\u0120mouse": 1057, "\u0120couldn": 1058, "\u0120ate": 1059, "so": 1060, "\u0120de": 1061, "fore": 1062, "\u0120watch": 1063, "dded": 1064, "\u0120also": 1065, "\u0120R": 1066, "\u0120fell": 1067, "\u0120doll": 1068, "\u0120leave": 1069, "ished": 1070, "\u0120two": 1071, "\u0120face": 1072, "\u0120green": 1073, "gan": 1074, "iss": 1075, "\u0120noise": 1076, "\u0120flowers": 1077, "What": 1078, "bit": 1079, "irst": 1080, "ble": 1081, "owl": 1082, "\u0120where": 1083, "abbit": 1084, "ock": 1085, "\u0120soon": 1086, "self": 1087, "luffy": 1088, "illy": 1089, "\u0120hear": 1090, "\u0120slide": 1091, "\u0120rabbit": 1092, "\u0120before": 1093, "\u0120pus": 1094, "\u0120sat": 1095, "\u0120hole": 1096, "irrel": 1097, "ired": 1098, "\u0120hands": 1099, "\u0120use": 1100, "ma": 1101, "\u0120nodded": 1102, "\u00e2\u0122\u013f": 1103, "Then": 1104, "That": 1105, "\u00e2\u0122\u013e": 1106, "Hi": 1107, "\u0120kept": 1108, "\u0120expl": 1109, "ear": 1110, "\u0120squirrel": 1111, "Look": 1112, "\u0120pain": 1113, "\u0120going": 1114, "\u0120cook": 1115, "\u0120store": 1116, "\u0120birds": 1117, "day": 1118, "\u0120having": 1119, "\u0120sing": 1120, "az": 1121, "\u0120funny": 1122, "\u0120catch": 1123, "\u0120Fluffy": 1124, "\u0120ey": 1125, "aybe": 1126, "uit": 1127, "ught": 1128, "leep": 1129, "Ben": 1130, "\u0120fin": 1131, "\u0120bunny": 1132, "\u0120bus": 1133, "\u0120Can": 1134, "\u0120bre": 1135, "\u0120fix": 1136, "ange": 1137, "\u0120yell": 1138, "\u0120think": 1139, "uch": 1140, "\u0120wr": 1141, "\u0120tired": 1142, "\u0120looking": 1143, "\u0120cra": 1144, "\u0120our": 1145, "\u0120used": 1146, "thing": 1147, "\u0120pull": 1148, "\u0120work": 1149, "\u0120kit": 1150, "air": 1151, "\u0120Now": 1152, "We": 1153, "\u0120wait": 1154, "ting": 1155, "\u0120has": 1156, "\u0120sound": 1157, "\u0120jo": 1158, "\u0120beh": 1159, "\u0120thr": 1160, "\u0120others": 1161, "\u0120pond": 1162, "\u0120ask": 1163, "\u0120sunny": 1164, "\u0120G": 1165, "\u0120mean": 1166, "chen": 1167, "\u0120kitchen": 1168, "\u0120talk": 1169, "\u0120dr": 1170, "led": 1171, "\u0120flo": 1172, "ng": 1173, "ember": 1174, "\u0120Jo": 1175, "rew": 1176, "\u0120head": 1177, "\u0120pie": 1178, "\u0120tri": 1179, "\u0120first": 1180, "\u0120dif": 1181, "joy": 1182, "ello": 1183, "\u0120eyes": 1184, "Hello": 1185, "\u0120real": 1186, "\u0120fav": 1187, "\u0120flower": 1188, "\u0120mommy": 1189, "\u0120z": 1190, "\u0120right": 1191, "\u0120mess": 1192, "\u0120con": 1193, "orn": 1194, "\u0120swe": 1195, "ath": 1196, "ious": 1197, "\u0120import": 1198, "\u0120\u00e2\u0122\u013e": 1199, "\u0120cold": 1200, "\u0120remember": 1201, "\u0120Jack": 1202, "\u0120vo": 1203, "\u0120duck": 1204, "\u0120race": 1205, "ft": 1206, "\u0120Do": 1207, "\u0120curi": 1208, "\u0120sand": 1209, "imes": 1210, "\u0120moral": 1211, "zy": 1212, "\u0120shared": 1213, "\u0120party": 1214, "\u0120advent": 1215, "\u0120enjoy": 1216, "\u0120okay": 1217, "ac": 1218, "\u0120making": 1219, "\u0120bright": 1220, "At": 1221, "\u0120important": 1222, "llow": 1223, "reed": 1224, "\u0120hop": 1225, "ount": 1226, "ster": 1227, "\u0120curious": 1228, "\u0120worked": 1229, "\u0120dress": 1230, "\u0120own": 1231, "\u0120hid": 1232, "\u0120cla": 1233, "\u0120favor": 1234, "\u0120yard": 1235, "\u0120began": 1236, "\u0120sleep": 1237, "\u0120dir": 1238, "\u0120favorite": 1239, "\u0120mon": 1240, "hn": 1241, "\u0120thing": 1242, "\u0120tall": 1243, "\u0120hill": 1244, "\u0120ice": 1245, "Wow": 1246, "Don": 1247, "\u0120rest": 1248, "\u0120here": 1249, "\u0120draw": 1250, "\u0120Fin": 1251, "\u0120bag": 1252, "\u0120ri": 1253, "\u0120dis": 1254, "ken": 1255, "\u0120tell": 1256, "\u0120watched": 1257, "\u0120follow": 1258, "\u0120move": 1259, "\u0120agreed": 1260, "que": 1261, "co": 1262, "ect": 1263, "\u0120block": 1264, "lly": 1265, "\u0120bel": 1266, "\u0120night": 1267, "\u0120hun": 1268, "\u0120surprise": 1269, "\u0120stop": 1270, "\u0120pick": 1271, "\u0120cut": 1272, "\u0120trees": 1273, "\u0120hot": 1274, "aper": 1275, "\u0120This": 1276, "\u0120grass": 1277, "\u0120behind": 1278, "\u0120sho": 1279, "After": 1280, "\u0120dark": 1281, "\u0120worry": 1282, "\u0120voice": 1283, "ied": 1284, "\u0120walking": 1285, "\u0120floor": 1286, "\u0120song": 1287, "\u0120tail": 1288, "\u0120ru": 1289, "\u0120table": 1290, "\u0120top": 1291, "\u0120lion": 1292, "\u0120Dad": 1293, "\u0120forg": 1294, "\u0120farm": 1295, "\u0120sweet": 1296, "\u0120lady": 1297, "\u0120please": 1298, "Max": 1299, "fere": 1300, "\u0120colors": 1301, "\u0120shout": 1302, "\u0120differe": 1303, "\u0120read": 1304, "\u0120leaves": 1305, "\u0120closer": 1306, "\u0120butter": 1307, "\u0120turned": 1308, "ign": 1309, "\u00e2\u0122\u013b": 1310, "aring": 1311, "\u0120wood": 1312, "\u0120needed": 1313, "isy": 1314, "\u0120tast": 1315, "Why": 1316, "\u0120del": 1317, "\u0120feeling": 1318, "\u0120cried": 1319, "ered": 1320, "\u0120piece": 1321, "\u0120adventure": 1322, "\u0120cars": 1323, "\u0120Mr": 1324, "\u0120Suddenly": 1325, "\u0120does": 1326, "\u0120different": 1327, "\u0120laugh": 1328, "\u0120hungry": 1329, "\u0120fire": 1330, "\u0120roll": 1331, "Sue": 1332, "Anna": 1333, "\u0120full": 1334, "ike": 1335, "bo": 1336, "\u0120As": 1337, "\u0120yellow": 1338, "\u0120cr": 1339, "\u0120friendly": 1340, "\u0120prin": 1341, "\u0120paper": 1342, "\u0120hair": 1343, "\u0120swing": 1344, "\u0120per": 1345, "oom": 1346, "\u0120wet": 1347, "\u0120touch": 1348, "Sam": 1349, "cked": 1350, "\u0120fruit": 1351, "\u0120broken": 1352, "\u0120That": 1353, "ient": 1354, "ater": 1355, "ached": 1356, "bye": 1357, "\u0120another": 1358, "\u0120ready": 1359, "\u0120climbed": 1360, "\u0120prom": 1361, "\u0120dance": 1362, "\u0120Bobo": 1363, "\u0120pretend": 1364, "\u0120listened": 1365, "where": 1366, "\u0120danc": 1367, "ppy": 1368, "\u0120light": 1369, "\u0120swim": 1370, "\u0120only": 1371, "\u0120running": 1372, "\u0120gone": 1373, "bbed": 1374, "\u0120plan": 1375, "\u0120smell": 1376, "sh": 1377, "Suddenly": 1378, "av": 1379, "\u0120close": 1380, "She": 1381, "ila": 1382, "\u0120blocks": 1383, "\u0120amaz": 1384, "\u0120Jane": 1385, "aby": 1386, "\u0120wonder": 1387, "ndma": 1388, "\u0120hold": 1389, "So": 1390, "\u0120wall": 1391, "\u0120All": 1392, "ins": 1393, "Sara": 1394, "\u0120sees": 1395, "\u0120repl": 1396, "\u0120helping": 1397, "oney": 1398, "\u0120glad": 1399, "\u0120pu": 1400, "\u0120slow": 1401, "\u0120reached": 1402, "\u0120ac": 1403, "\u0120goodbye": 1404, "\u0120Timmy": 1405, "red": 1406, "\u0120ant": 1407, "\u0120been": 1408, "\u0120fight": 1409, "\u0120dri": 1410, "\u0120cool": 1411, "\u0120less": 1412, "\u0120pushed": 1413, "\u0120butterf": 1414, "iced": 1415, "af": 1416, "\u0120cream": 1417, "\u0120window": 1418, "Mia": 1419, "\u0120moment": 1420, "\u0120fair": 1421, "ather": 1422, "\u0120explore": 1423, "\u0120hide": 1424, "\u0120O": 1425, "\u0120Everyone": 1426, "\u0120must": 1427, "\u0120ar": 1428, "\u0120trying": 1429, "\u0120sit": 1430, "\u0120snow": 1431, "\u0120baby": 1432, "\u0120stuck": 1433, "\u0120might": 1434, "\u0120wag": 1435, "\u0120perf": 1436, "\u0120name": 1437, "\u0120done": 1438, "\u0120apple": 1439, "\u0120ste": 1440, "icy": 1441, "\u0120coming": 1442, "\u0120bit": 1443, "\u0120child": 1444, "\u0120quick": 1445, "\u0120bar": 1446, "ized": 1447, "\u0120thank": 1448, "\u0120fall": 1449, "\u0120looks": 1450, "\u0120balloon": 1451, "\u0120scary": 1452, "\u0120buy": 1453, "\u0120wished": 1454, "\u0120held": 1455, "ash": 1456, "\u0120underst": 1457, "\u0120train": 1458, "\u0120doing": 1459, "\u0120dirty": 1460, "\u0120build": 1461, "\u0120dream": 1462, "\u0120din": 1463, "In": 1464, "ott": 1465, "\u0120left": 1466, "ames": 1467, "\u0120air": 1468, "avy": 1469, "aisy": 1470, "\u0120shouted": 1471, "\u0120brother": 1472, "\u0120mar": 1473, "\u0120win": 1474, "key": 1475, "\u0120books": 1476, "\u0120count": 1477, "\u0120replied": 1478, "\u0120tiny": 1479, "\u0120bran": 1480, "\u0120clapped": 1481, "\u0120spl": 1482, "\u0120why": 1483, "\u0120reach": 1484, "\u0120owl": 1485, "\u0120dro": 1486, "\u0120wise": 1487, "\u0120pulled": 1488, "\u0120woods": 1489, "andy": 1490, "ely": 1491, "\u0120three": 1492, "'re": 1493, "\u0120grow": 1494, "\u0120through": 1495, "\u0120cloud": 1496, "\u0120sure": 1497, "\u0120chair": 1498, "\u0120butterfly": 1499, "\u0120treat": 1500, "\u0120swam": 1501, "\u0120land": 1502, "\u0120seen": 1503, "ask": 1504, "\u0120mat": 1505, "\u0120cup": 1506, "outh": 1507, "\u0120sometimes": 1508, "\u0120mouth": 1509, "\u0120nest": 1510, "\u0120pink": 1511, "ix": 1512, "\u0120cre": 1513, "\u0120fill": 1514, "\u0120job": 1515, "Okay": 1516, "ph": 1517, "\u0120grabbed": 1518, "pe": 1519, "\u0120colorful": 1520, "uddy": 1521, "oup": 1522, "ield": 1523, "\u0120join": 1524, "art": 1525, "\u0120plant": 1526, "\u0120lesson": 1527, "\u0120There": 1528, "ower": 1529, "\u0120stayed": 1530, "\u0120bigger": 1531, "\u0120cont": 1532, "\u0120remembered": 1533, "\u0120paint": 1534, "\u0120waved": 1535, "\u0120After": 1536, "ds": 1537, "This": 1538, "\u0120Mommy": 1539, "Oh": 1540, "room": 1541, "\u0120waited": 1542, "\u0120clot": 1543, "\u0120blew": 1544, "\u0120clothes": 1545, "\u0120enjoyed": 1546, "\u0120cast": 1547, "\u0120quickly": 1548, "\u0120broke": 1549, "\u0120noticed": 1550, "cle": 1551, "Jo": 1552, "\u0120set": 1553, "de": 1554, "\u0120anything": 1555, "\u0120likes": 1556, "ation": 1557, "\u0120games": 1558, "\u0120pictures": 1559, "\u0120miss": 1560, "ucky": 1561, "\u0120gif": 1562, "\u0120heavy": 1563, "\u0120alone": 1564, "\u0120pen": 1565, "\u0120gent": 1566, "\u0120sea": 1567, "ries": 1568, "\u0120mus": 1569, "\u0120tight": 1570, "\u0120world": 1571, "\u0120bott": 1572, "\u0120spot": 1573, "der": 1574, "\u0120year": 1575, "\u0120pot": 1576, "\u0120hopped": 1577, "aught": 1578, "asure": 1579, "\u0120turns": 1580, "ton": 1581, "Her": 1582, "orm": 1583, "\u0120pat": 1584, "\u0120arm": 1585, "\u0120threw": 1586, "\u0120mix": 1587, "lc": 1588, "\u0120bike": 1589, "\u0120himself": 1590, "ctor": 1591, "\u0120won": 1592, "\u0120Buddy": 1593, "\u0120everywhere": 1594, "\u0120tower": 1595, "\u0120white": 1596, "Lucy": 1597, "less": 1598, "\u0120followed": 1599, "amp": 1600, "\u0120comp": 1601, "\u0120ride": 1602, "\u0120ju": 1603, "row": 1604, "\u0120key": 1605, "man": 1606, "\u0120black": 1607, "\u0120wrong": 1608, "Bob": 1609, "olly": 1610, "\u0120What": 1611, "\u0120je": 1612, "ape": 1613, "ze": 1614, "\u0120makes": 1615, "Spot": 1616, "arent": 1617, "\u0120break": 1618, "thy": 1619, "\u0120music": 1620, "\u0120delic": 1621, "\u0120forgot": 1622, "\u0120deep": 1623, "ued": 1624, "ee": 1625, "\".": 1626, "\u0120castle": 1627, "\u0120bee": 1628, "\u0120wear": 1629, "ister": 1630, "cess": 1631, "ner": 1632, "\u0120pol": 1633, "\u0120parent": 1634, "ves": 1635, "\u0120em": 1636, "\u0120Daisy": 1637, "Do": 1638, "\u0120round": 1639, "iet": 1640, "\u0120hit": 1641, "\u0120ve": 1642, "ang": 1643, "oun": 1644, "\u0120quiet": 1645, "\u0120monster": 1646, "ully": 1647, "\u0120danced": 1648, "\u0120vis": 1649, "\u0120wants": 1650, "\u0120nap": 1651, "ance": 1652, "\u0120John": 1653, "\u0120dry": 1654, "zz": 1655, "\u0120stu": 1656, "\u0120bor": 1657, "\u0120understand": 1658, "\u0120talked": 1659, "os": 1660, "rot": 1661, "ross": 1662, "fully": 1663, "\u0120leaf": 1664, "\u0120faster": 1665, "ren": 1666, "ts": 1667, "\u0120bowl": 1668, "\u0120brought": 1669, "\u0120leg": 1670, "itten": 1671, "\u0120cookies": 1672, "\u0120side": 1673, "\u0120smart": 1674, "\u0120sister": 1675, "From": 1676, "\u0120rel": 1677, "\u0120poin": 1678, "\u0120res": 1679, "\u0120mum": 1680, "\u0120Inside": 1681, "cy": 1682, "ards": 1683, "His": 1684, "\u0120happen": 1685, "\u0120sec": 1686, "\u0120branch": 1687, "eddy": 1688, "\u0120well": 1689, "\u0120someone": 1690, "\u0120sharing": 1691, "\u0120rocks": 1692, "\u0120button": 1693, "\u0120finished": 1694, "\u0120really": 1695, "\u0120sign": 1696, "\u0120flying": 1697, "\u0120contin": 1698, "ence": 1699, "\u0120Maybe": 1700, "\u0120fox": 1701, "ipp": 1702, "\u0120silly": 1703, "\u0120worried": 1704, "\u0120ra": 1705, "\u0120visit": 1706, "gy": 1707, "\u0120Lila": 1708, "\u0120que": 1709, "\u0120To": 1710, "\u0120Joe": 1711, "\u0120dinner": 1712, "\u0120today": 1713, "\u0120secret": 1714, "\u0120ele": 1715, "\u0120gu": 1716, "\u0120Soon": 1717, "\u0120everything": 1718, "\u0120danger": 1719, "\u0120beach": 1720, "\u0120el": 1721, "John": 1722, "\u0120perfect": 1723, "\u0120smiles": 1724, "\u0120wish": 1725, "\u0120shin": 1726, "\u0120filled": 1727, "ast": 1728, "\u0120pig": 1729, "\u0120Sarah": 1730, "\u0120welc": 1731, "\u0120eating": 1732, "\u0120river": 1733, "\u0120sang": 1734, "\u0120pieces": 1735, "\u0120At": 1736, "\u0120fur": 1737, "\u0120children": 1738, "\u0120pudd": 1739, "\u0120continued": 1740, "\u0120Em": 1741, "\u0120gi": 1742, "\u0120else": 1743, "\u0120bite": 1744, "\u0120king": 1745, "\u0120ear": 1746, "\u0120promised": 1747, "\u0120field": 1748, "While": 1749, "\u0120parents": 1750, "\u0120carefully": 1751, "\u0120realized": 1752, "\u0120free": 1753, "\u0120snack": 1754, "\u0120creat": 1755, "ead": 1756, "\u0120orange": 1757, "itting": 1758, "\u0120jar": 1759, "imi": 1760, "\u0120spr": 1761, "\u0120drink": 1762, "\u0120drag": 1763, "Maybe": 1764, "\u0120yes": 1765, "stead": 1766, "\u0120mud": 1767, "Just": 1768, "\u0120cow": 1769, "\u0120rolled": 1770, "\u0120blank": 1771, "\u0120crying": 1772, "\u0120laughing": 1773, "\u0120Billy": 1774, "Amy": 1775, "\u0120words": 1776, "\u0120soup": 1777, "\u0120doctor": 1778, "\u0120purp": 1779, "ses": 1780, "\u0120blanket": 1781, "\u0120snake": 1782, "\u0120Z": 1783, "cket": 1784, "\u0120grandma": 1785, "\u0120amazing": 1786, "\u0120brown": 1787, "\u0120sail": 1788, "ord": 1789, "\u0120candy": 1790, "\u0120enough": 1791, "\u0120bath": 1792, "\u0120boun": 1793, "\u0120gift": 1794, "\u0120throw": 1795, "\u0120pet": 1796, "\u0120bottle": 1797, "\u0120fairy": 1798, "\u0120without": 1799, "Fin": 1800, "\u0120purple": 1801, "ich": 1802, "\u0120lon": 1803, "\u0120asks": 1804, "ons": 1805, "\u0120barked": 1806, "chool": 1807, "\u0120wagged": 1808, "\u0120crab": 1809, "\u0120lonely": 1810, "\u0120moved": 1811, "ire": 1812, "\u0120whe": 1813, "used": 1814, "fort": 1815, "\u0120monkey": 1816, "\u0120closed": 1817, "\u0120morning": 1818, ".\u00e2\u0122\u013f": 1819, "iver": 1820, "\u0120dangerous": 1821, "ises": 1822, "ased": 1823, "ub": 1824, "\u0120school": 1825, "unch": 1826, "\u0120welcome": 1827, "\u0120att": 1828, "gg": 1829, "\u0120money": 1830, "\u0120owner": 1831, "\u0120lake": 1832, "\u0120sitting": 1833, "\u0120Gra": 1834, "\u0120getting": 1835, "\u0120paw": 1836, "ey": 1837, "ated": 1838, "\u0120shop": 1839, "ere": 1840, "!\u00e2\u0122\u013f": 1841, "\u0120higher": 1842, "\u0120shoes": 1843, "\u0120strange": 1844, "ush": 1845, "\u0120living": 1846, "\u0120treasure": 1847, "\u0120mail": 1848, "\u0120apples": 1849, "\u0120-": 1850, "\u0120stre": 1851, "\u0120talking": 1852, "\u0120shining": 1853, "\u0120pre": 1854, "\u0120past": 1855, "\u0120mother": 1856, "althy": 1857, "\u0120Tommy": 1858, "\u0120Ch": 1859, "una": 1860, "\u0120egg": 1861, "\u0120smo": 1862, "ible": 1863, "me": 1864, "\u0120Bl": 1865, "\u0120road": 1866, "\u0120runs": 1867, "\u0120chee": 1868, "Mommy": 1869, "\u0120mad": 1870, "\u0120coat": 1871, "vel": 1872, "board": 1873, "\u0120pass": 1874, "\u0120teddy": 1875, "\u0120caught": 1876, "\u0120Mimi": 1877, "\u0120wings": 1878, "fish": 1879, "\u0120nose": 1880, "\u0120delicious": 1881, "\u0120stand": 1882, "\u0120letter": 1883, "\u0120buck": 1884, "\u0120belie": 1885, "\u0120dragon": 1886, "cks": 1887, "\u0120fan": 1888, "\u0120years": 1889, "\u0120bat": 1890, "set": 1891, "\u0120bring": 1892, "asket": 1893, "\u0120same": 1894, "ol": 1895, "\u0120sear": 1896, "app": 1897, "\u0120basket": 1898, "ail": 1899, "\u0120start": 1900, "\u0120puddle": 1901, "ella": 1902, "ches": 1903, "\u0120thinks": 1904, "\u0120ph": 1905, "igh": 1906, "itch": 1907, "\u0120coll": 1908, "\u0120scream": 1909, "igg": 1910, "isk": 1911, "\u0120days": 1912, "\u0120farmer": 1913, "arm": 1914, "\u0120swings": 1915, "\u0120pill": 1916, "\u0120finally": 1917, "\u0120mine": 1918, "\u0120tom": 1919, "\u0120kite": 1920, "sw": 1921, "bow": 1922, "\u0120answ": 1923, "\u0120hoped": 1924, "\u0120whist": 1925, "\u0120push": 1926, "\u0120fit": 1927, "\u0120tasty": 1928, "emy": 1929, "\u0120herself": 1930, "\u0120wore": 1931, "\u0120gentle": 1932, "\u0120trou": 1933, "ined": 1934, "\u0120singing": 1935, "\u0120cray": 1936, "\u0120hor": 1937, "up": 1938, "\u0120arri": 1939, "\u0120stone": 1940, "\u0120vill": 1941, "\u0120bush": 1942, "\u0120cho": 1943, "\u0120shap": 1944, "\u0120teach": 1945, "phant": 1946, "Please": 1947, "ier": 1948, "\u0120bell": 1949, "\u0120dropped": 1950, "\u0120carrot": 1951, "\u0120Jen": 1952, "llie": 1953, "ama": 1954, "\u0120hiding": 1955, "aughty": 1956, "ract": 1957, "\u0120naughty": 1958, "\u0120woke": 1959, "isa": 1960, "iskers": 1961, "\u0120pers": 1962, "\u0120rainbow": 1963, "\u0120belong": 1964, "\u0120ben": 1965, "sy": 1966, "\u0120pile": 1967, "\u0120cour": 1968, "'ll": 1969, "\u0120teac": 1970, "sc": 1971, "\u0120twins": 1972, "\u0120spin": 1973, "OK": 1974, "\u0120cheered": 1975, "\u0120shapes": 1976, "\u0120bow": 1977, "\u0120sack": 1978, "\u0120seem": 1979, "\u0120elephant": 1980, "\u0120shell": 1981, "erry": 1982, "\u0120min": 1983, "\u0120grew": 1984, "\u0120spoon": 1985, "\u0120course": 1986, "\u0120touc": 1987, "\u0120lunch": 1988, "\u0120shook": 1989, "\u0120street": 1990, "Jack": 1991, "\u0120plane": 1992, "\u0120juice": 1993, "irth": 1994, "\u0120rope": 1995, "irthday": 1996, "ipped": 1997, "\u0120joy": 1998, "\u0120Blue": 1999, "\u0120puppy": 2000, "\u0120cute": 2001, "\u0120seed": 2002, "fused": 2003, "\u0120arrived": 2004, "\u0120able": 2005, "\u0120village": 2006, "\u0120cheese": 2007, "\u0120forever": 2008, "eb": 2009, "\u0120nut": 2010, "\u0120fence": 2011, "\u0120rob": 2012, "ball": 2013, "idge": 2014, "Good": 2015, "\u0120wonderful": 2016, "\u0120spo": 2017, "ale": 2018, "\u0120prob": 2019, "\u0120des": 2020, "\u0120inc": 2021, "\u0120touched": 2022, "\u0120war": 2023, "\u0120few": 2024, "lla": 2025, "\u0120sounds": 2026, "\u0120Fred": 2027, "\u0120bread": 2028, "\u0120power": 2029, "\u0120Whiskers": 2030, "\u0120Emma": 2031, "umb": 2032, "col": 2033, "lem": 2034, "\u0120eas": 2035, "ilk": 2036, "\u0120birthday": 2037, "\u0120shake": 2038, "\u0120carry": 2039, "\u0120bench": 2040, "\u0120most": 2041, "\u0120bugs": 2042, "\u0120problem": 2043, "\u0120teacher": 2044, "ass": 2045, "br": 2046, "\u0120Thank": 2047}, "merges": [["\u0120", "t"], ["h", "e"], ["\u0120", "a"], ["\u0120", "s"], ["n", "d"], ["\u0120", "w"], ["\u0120t", "he"], ["e", "d"], ["\u0120", "b"], ["\u0120t", "o"], ["\u0120a", "nd"], ["\u0120", "h"], ["\u0120", "f"], ["i", "n"], ["\u0120", "T"], ["\u0120w", "a"], ["r", "e"], ["i", "t"], ["o", "u"], ["\u0120", "l"], ["\u0120", "d"], ["\u0120", "c"], ["\u0120", "p"], ["a", "y"], ["\u0120", "m"], ["e", "r"], ["\u0120wa", "s"], ["o", "m"], ["\u0120T", "he"], ["\u0120", "he"], ["i", "s"], ["a", "r"], ["\u0120", "n"], ["i", "m"], ["o", "n"], ["\u0120s", "a"], ["i", "d"], ["l", "l"], ["\u0120h", "a"], ["\u0120", "g"], ["a", "t"], ["\u0120", "S"], ["in", "g"], ["o", "t"], ["e", "n"], ["a", "n"], ["l", "e"], ["o", "r"], ["e", "nd"], ["i", "r"], ["o", "f"], ["a", "m"], ["e", "t"], ["\u0120", "H"], ["\u0120", "it"], ["\u0120t", "h"], ["i", "g"], ["\u0120The", "y"], ["\u0120", "in"], ["i", "l"], ["\u0120p", "l"], ["\u0120H", "e"], ["\u0120", "\""], ["o", "w"], ["r", "i"], ["v", "er"], ["u", "t"], ["\u0120b", "e"], ["\u0120", "u"], ["\u0120sa", "id"], ["\u0120pl", "ay"], ["it", "h"], ["\u0120d", "ay"], ["\u0120w", "ith"], ["p", "p"], ["O", "n"], ["\u0120", "y"], ["o", "o"], ["k", "ed"], ["\u0120", "r"], ["e", "x"], ["\u0120he", "r"], ["c", "e"], ["\u0120", "I"], ["\u0120S", "he"], ["l", "d"], ["\u0120T", "im"], ["\u0120h", "is"], ["\u0120s", "t"], ["k", "e"], ["\u0120b", "ig"], ["n", "t"], ["c", "k"], ["\u0120y", "ou"], ["ver", "y"], ["s", "t"], ["v", "e"], ["\u0120", "on"], ["u", "n"], ["\u0120ha", "pp"], ["ri", "end"], ["\u0120f", "riend"], ["a", "ll"], ["il", "y"], ["ex", "t"], ["\u0120", "L"], ["\u0120the", "y"], ["of", "t"], ["\u0120w", "e"], ["\u0120ha", "d"], ["\u0120n", "ot"], ["\u0120l", "i"], ["\u0120u", "p"], ["he", "r"], ["\u0120wa", "nt"], ["\u0120", "of"], ["a", "d"], ["it", "t"], ["<", "|"], ["|", ">"], ["end", "oft"], ["endoft", "ext"], ["s", "e"], ["\u0120", "B"], ["\u0120d", "o"], ["\u0120", "e"], ["\u0120happ", "y"], ["en", "t"], ["\u0120", "M"], ["\u0120", "very"], ["e", "s"], ["\u0120th", "at"], ["\u0120sa", "w"], ["On", "e"], ["'", "s"], ["ou", "ld"], ["\u0120m", "om"], ["\u0120f", "or"], ["\u0120s", "h"], ["itt", "le"], ["\u0120l", "ittle"], ["\u0120s", "he"], ["im", "e"], ["c", "h"], ["\u0120n", "am"], [".", "\""], ["\u0120t", "ime"], ["\u0120", "k"], ["\u0120s", "o"], ["ou", "nd"], ["\u0120the", "re"], ["\u0120nam", "ed"], ["\u0120s", "m"], ["\u0120b", "o"], ["\u0120L", "ily"], ["\u0120we", "re"], ["\u0120n", "e"], ["\u0120want", "ed"], ["ou", "t"], ["\u0120b", "ut"], ["\u0120friend", "s"], ["T", "he"], ["v", "ed"], ["!", "\""], ["h", "t"], ["\u0120T", "om"], ["ir", "d"], ["e", "l"], ["a", "l"], ["\u0120b", "ird"], ["\u0120a", "n"], ["a", "ke"], ["\u0120to", "o"], ["om", "e"], ["u", "g"], ["\u0120I", "t"], ["id", "e"], ["\u0120w", "ent"], ["\u0120w", "h"], ["\u0120he", "l"], ["On", "ce"], ["\u0120", "is"], ["\u0120a", "ll"], ["u", "e"], ["\u0120hel", "p"], ["\u0120l", "oo"], ["\u0120l", "o"], ["t", "er"], ["\u0120", "A"], ["\u0120up", "on"], ["r", "y"], ["o", "re"], ["i", "nd"], ["\u0120f", "un"], ["g", "et"], ["\u0120to", "y"], ["i", "ll"], ["am", "e"], ["\u0120a", "s"], ["\u0120a", "t"], ["r", "a"], ["\u0120", "j"], ["\u0120d", "id"], ["get", "her"], ["\u0120", "re"], ["u", "r"], ["\u0120", "o"], ["\u0120to", "gether"], ["\u0120s", "e"], ["a", "ck"], ["\u0120c", "at"], ["l", "y"], ["\u0120t", "re"], ["oo", "d"], ["i", "c"], ["\u0120do", "g"], ["t", "ed"], ["\u0120c", "ould"], ["\u0120c", "an"], ["\u0120the", "ir"], ["ar", "d"], ["ar", "k"], ["e", "c"], ["\u0120g", "ir"], ["\u0120play", "ed"], ["\u0120b", "all"], ["\u0120h", "im"], ["?", "\""], ["\u0120gir", "l"], ["\u0120r", "o"], ["w", "ay"], ["\u0120g", "o"], ["he", "d"], ["\u0120", "out"], ["m", "y"], ["\u0120a", "re"], ["\u0120l", "e"], ["a", "in"], ["\u0120f", "r"], ["he", "n"], ["\u0120k", "n"], ["'", "t"], ["u", "m"], ["\u0120the", "m"], ["a", "x"], ["\u0120sa", "d"], ["u", "l"], ["\u0120bo", "y"], ["\u0120tre", "e"], ["ot", "her"], ["\u0120ha", "ve"], ["\u0120m", "an"], ["\u0120c", "l"], ["\u0120loo", "ked"], ["\u0120lo", "ved"], ["ou", "g"], ["\u0120f", "ound"], ["\u0120s", "p"], ["\u0120st", "ar"], ["\u0120S", "ue"], ["on", "e"], ["h", "ing"], ["\u0120s", "c"], ["\u0120b", "ack"], ["\u0120M", "ax"], ["ow", "n"], ["a", "re"], ["\u0120li", "ke"], ["s", "ide"], ["f", "ul"], ["\u0120be", "c"], ["\u0120m", "e"], ["ig", "ht"], ["on", "g"], ["\u0120c", "ar"], ["\u0120p", "ark"], ["o", "p"], ["el", "t"], ["\u0120li", "ked"], ["\u0120", "One"], ["\u0120w", "ould"], ["r", "ound"], ["\u0120m", "ake"], ["\u0120l", "a"], ["\u0120f", "a"], ["\u0120f", "elt"], ["e", "ll"], ["Y", "ou"], ["\u0120", "W"], ["\u0120se", "e"], ["om", "et"], ["\u0120B", "ut"], ["\u0120as", "ked"], ["a", "g"], ["\u0120ne", "w"], ["\u0120n", "o"], ["ou", "se"], ["\u0120S", "am"], ["\u0120star", "ted"], ["i", "ce"], ["ar", "ed"], ["\u0120c", "ame"], ["\u0120B", "en"], ["\u0120", "other"], ["\u0120a", "l"], ["oug", "ht"], ["il", "ed"], ["\u0120a", "g"], ["\u0120s", "omet"], ["\u0120g", "ood"], ["\u0120sm", "all"], ["\u0120b", "r"], ["s", "s"], ["\u0120sm", "iled"], ["\u0120s", "ay"], ["ad", "e"], ["ri", "ed"], ["ing", "s"], ["\u0120", "\u010a"], ["o", "b"], ["p", "ot"], ["\u0120w", "or"], ["\u0120f", "ind"], ["\u0120a", "way"], ["\u0120", "ex"], ["\u0120p", "ut"], ["\u0120somet", "hing"], ["i", "a"], ["\u0120wh", "at"], ["\u0120m", "ade"], ["\u0120fr", "om"], ["t", "y"], ["\u0120th", "ought"], ["en", "ed"], ["\u0120h", "ome"], ["\u0120play", "ing"], ["\u0120c", "o"], ["\u0120e", "very"], ["\u0120wa", "l"], ["oo", "k"], ["\u0120m", "u"], ["a", "ch"], ["u", "c"], ["ar", "n"], ["\u0120r", "an"], ["\u0120S", "pot"], ["\u0120", "F"], ["i", "le"], ["\u0120", "J"], ["i", "e"], ["\u0120ag", "ain"], ["a", "ve"], ["\u0120s", "ome"], ["d", "d"], ["\u0120h", "ouse"], ["\u0120la", "ug"], ["\u0120d", "own"], ["\u0120f", "l"], ["k", "ing"], ["\u0120sc", "ared"], ["\u0120too", "k"], ["n", "y"], ["u", "re"], ["\u0120p", "r"], ["i", "ck"], ["\u0120toy", "s"], ["\u0120le", "arn"], ["\u0120bo", "x"], ["\u0120w", "ill"], ["i", "f"], ["\u0120", "You"], ["\u0120a", "round"], ["a", "b"], ["\u0120m", "y"], ["re", "t"], ["\u0120th", "ings"], ["\u0120you", "r"], ["\u0120b", "l"], ["e", "p"], ["ou", "d"], ["u", "ck"], ["\u0120w", "hen"], ["\u0120f", "e"], ["is", "h"], ["\u0120li", "ved"], ["\u0120s", "un"], ["\u0120the", "n"], ["\u0120s", "w"], ["a", "s"], ["u", "s"], [",", "\""], ["pp", "ed"], ["\u0120c", "h"], ["\u0120a", "b"], ["an", "k"], ["\u0120M", "ia"], ["\u0120g", "et"], ["T", "im"], ["um", "p"], ["\u0120l", "ot"], ["T", "h"], ["uc", "y"], ["is", "t"], ["ot", "h"], ["a", "p"], ["\u0120t", "ried"], ["\u0120g", "ot"], ["\u0120kn", "ow"], ["\u0120say", "s"], ["\u0120wh", "o"], ["it", "ed"], ["u", "st"], ["\u0120kn", "e"], ["\u0120man", "y"], ["nd", "er"], ["\u0120ab", "out"], ["\u0120in", "t"], ["L", "ily"], ["\u0120p", "ret"], ["\u0120an", "y"], ["\u0120d", "ec"], ["\u0120r", "ed"], ["\u0120", "D"], ["i", "ve"], ["\u0120kne", "w"], ["is", "e"], ["ou", "s"], ["a", "ce"], ["\u0120m", "ore"], ["\u0120p", "ic"], ["\u0120c", "are"], ["\u0120h", "ug"], ["\u0120", "v"], ["all", "y"], ["a", "u"], ["q", "u"], ["\u0120wa", "ter"], ["\u0120learn", "ed"], ["f", "ter"], ["\u0120be", "st"], ["\u0120bec", "ame"], ["\u0120p", "o"], ["\u0120L", "ucy"], ["\u0120o", "p"], ["au", "se"], ["\u0120out", "side"], ["\u00e2", "\u0122"], ["\u0120g", "re"], ["\u0120ex", "c"], ["ur", "p"], ["\u0120laug", "hed"], ["way", "s"], ["\u0120loo", "k"], ["\u0120al", "ways"], ["\u0120sh", "ow"], ["\u0120dec", "id"], ["\u0120B", "ob"], ["\u0120u", "n"], ["\u0120S", "o"], ["\u0120ro", "om"], ["\u0120h", "o"], ["\u0120bec", "ause"], ["\u0120decid", "ed"], ["f", "e"], ["\u0120e", "at"], ["it", "e"], ["\u0120int", "o"], ["\u0120b", "oth"], ["an", "t"], ["\u0120j", "ump"], ["\u0120A", "nd"], ["\u0120M", "om"], ["er", "s"], ["\u0120p", "e"], ["u", "dd"], ["The", "y"], ["\u0120d", "ad"], ["\u0120on", "e"], ["n", "n"], ["\u0120", "ke"], ["\u0120fe", "el"], ["\u0120n", "ice"], ["\u0120exc", "ited"], ["\u0120th", "is"], ["\u0120fa", "st"], ["\u0120", "E"], ["Y", "es"], ["\u0120l", "ong"], ["T", "om"], ["\u0120r", "un"], ["\u0120s", "k"], ["\u0120to", "ld"], ["urp", "r"], ["\u0120a", "m"], ["\u0120in", "side"], ["u", "ll"], ["\u0120t", "r"], ["ou", "r"], ["\u0120s", "urpr"], ["\u0120m", "o"], ["in", "k"], ["\u0120pret", "ty"], ["in", "y"], ["\u0120s", "or"], ["\u0120t", "ake"], ["W", "h"], ["nn", "a"], ["o", "g"], ["\u0120g", "ra"], ["\u0120e", "ach"], ["\u0120s", "l"], ["le", "w"], ["\u0120g", "ave"], ["\u0120st", "r"], ["\u0120mu", "ch"], ["\u0120h", "ow"], ["g", "ed"], ["im", "al"], ["\u0120an", "imal"], ["\u0120ro", "ck"], ["ar", "a"], ["\u0120ne", "ed"], ["et", "ter"], ["\u0120", "or"], ["B", "ut"], ["\u0120th", "an"], ["\u0120to", "w"], ["v", "en"], ["\u0120", "C"], ["\u0120u", "nder"], ["\u0120o", "ld"], ["es", "s"], ["\u0120sor", "ry"], ["g", "e"], ["is", "ed"], ["r", "o"], ["ur", "t"], ["\u0120c", "le"], ["\u0120wal", "ked"], ["a", "nd"], ["\u0120f", "ish"], ["\u0120cl", "o"], ["\u0120ha", "nd"], ["\u0120be", "ar"], ["\u0120t", "a"], ["a", "se"], ["\u0120H", "is"], ["\u0120k", "ind"], ["ur", "n"], ["\u0120W", "e"], ["he", "re"], ["\u0120j", "ust"], ["\u0120fl", "ow"], ["\u0120happ", "ened"], ["\u0120did", "n"], ["\u0120t", "e"], ["p", "l"], ["\u0120f", "ood"], ["\u0120l", "ist"], ["\u0120animal", "s"], ["\u0120t", "ry"], ["\u0120h", "ig"], ["\u0120", "ide"], ["\u0120wa", "t"], ["\u0120ne", "ar"], ["in", "e"], ["\u0120sk", "y"], ["c", "hed"], ["\u0120s", "n"], ["v", "ing"], ["r", "om"], ["\u0120f", "i"], ["\u0120ide", "a"], ["\u0120u", "s"], ["\u0120b", "etter"], ["\u0120he", "ard"], ["\u0120t", "w"], ["\u0120b", "ug"], ["\u0120A", "my"], ["g", "ry"], ["\u0120it", "s"], ["f", "f"], ["\u0120l", "et"], ["p", "ec"], ["at", "e"], ["\u0120", "en"], ["\u0120sh", "are"], ["ab", "le"], ["\u0120care", "ful"], ["Th", "ank"], ["\u0120", "if"], ["\u0120f", "ly"], ["M", "om"], ["\u0120st", "or"], ["i", "al"], ["\u0120T", "h"], ["\u0120f", "lew"], ["m", "ore"], ["\u0120any", "more"], ["\u0120sp", "ec"], ["\u0120spec", "ial"], ["l", "f"], ["\u0120c", "om"], ["\u0120lot", "s"], ["i", "on"], ["\u0120ne", "ver"], ["\u0120d", "an"], ["\u0120b", "y"], ["\u0120w", "ind"], ["\u0120d", "on"], ["\u0120f", "o"], ["\u0120t", "al"], ["re", "am"], ["\u0120cle", "an"], ["\u0120b", "u"], ["\u0120g", "r"], ["\u0120lo", "ve"], ["r", "m"], ["\u0120", "end"], ["\u0120The", "n"], ["b", "er"], ["or", "t"], ["\u0120e", "ven"], ["op", "le"], ["\u0120f", "ore"], ["\u0120m", "ag"], ["udd", "en"], ["\u0120o", "ver"], ["\u0120c", "ake"], ["\u0120sh", "iny"], ["\u0120h", "ard"], ["\u0120A", "nna"], ["\u0120t", "urn"], ["\u0120co", "l"], ["\u0120a", "fter"], ["\u0120b", "ad"], ["\u0120b", "ook"], ["udden", "ly"], ["\u0120sa", "fe"], ["ad", "y"], ["L", "et"], ["\u0120f", "am"], ["\u0120h", "urt"], ["\u0120surpr", "ised"], ["\u0120pr", "oud"], ["im", "b"], ["pec", "ted"], ["\u0120hig", "h"], ["\u0120E", "very"], ["b", "b"], ["\u0120pe", "ople"], ["\u0120c", "u"], ["\u0120do", "or"], ["\u0120cl", "imb"], ["ard", "en"], ["\u0120g", "arden"], ["\u0120g", "round"], ["\u0120c", "ome"], ["\u0120g", "l"], ["\u0120op", "ened"], ["\u0120pic", "ked"], ["\u0120l", "oud"], ["ex", "pected"], ["\u0120un", "expected"], ["\u0120be", "a"], ["\u0120c", "he"], ["A", "s"], ["il", "d"], ["\u0120bl", "ue"], ["\u0120g", "ive"], ["\u0120wa", "y"], ["\u0120", "im"], ["'", "m"], ["\u0120hug", "ged"], ["\u0120st", "ill"], ["\u0120col", "or"], ["\u0120than", "ked"], ["\u0120e", "ver"], ["\u0120F", "rom"], ["\u0120f", "ar"], ["\u0120c", "all"], ["\u0120H", "er"], ["\u0120W", "hen"], ["\u0120of", "f"], ["i", "p"], ["\u0120", "K"], ["N", "o"], ["um", "my"], ["ag", "e"], ["\u0120S", "ara"], ["\u0120mag", "ic"], ["i", "z"], ["oug", "h"], ["\u0120jump", "ed"], ["\u0120sh", "ould"], ["oo", "l"], ["\u0120k", "id"], ["u", "ff"], ["\u0120fam", "ily"], ["\u0120sm", "ile"], ["k", "ay"], ["\u0120p", "ar"], ["\u0120wal", "k"], ["he", "s"], ["\u0120pl", "ace"], ["c", "t"], ["\u0120n", "ow"], ["\u0120I", "n"], ["\u0120gre", "at"], ["\u0120m", "a"], ["\u0120", "qu"], ["le", "s"], ["itt", "y"], ["\u0120st", "ay"], ["\u0120p", "a"], ["e", "m"], ["\u0120str", "ong"], ["\u0120st", "o"], ["\u0120fore", "st"], ["t", "ure"], ["\u0120u", "nt"], ["\u0120b", "ra"], ["an", "e"], ["\u0120st", "ick"], ["\u0120", "P"], ["\u0120br", "o"], ["\u0120bea", "ut"], ["\u0120unt", "il"], ["\u0120bo", "at"], ["d", "y"], ["\u0120fr", "og"], ["o", "on"], ["\u0120s", "qu"], ["\u0120n", "ext"], ["n", "ing"], ["a", "k"], ["le", "ase"], ["\u0120happ", "ily"], ["\u0120kid", "s"], ["\u0120a", "pp"], ["i", "ful"], ["\u0120list", "en"], ["\u0120beaut", "iful"], ["i", "es"], ["un", "ny"], ["t", "h"], ["o", "y"], ["\u0120d", "ra"], ["\u0120clo", "s"], ["\u0120help", "ed"], ["\u0120show", "ed"], ["\u0120stor", "y"], ["\u0120wh", "ile"], ["\u0120r", "ain"], ["b", "e"], ["\u0120t", "ra"], ["re", "l"], ["\u0120pic", "ture"], ["\u0120im", "p"], ["\u0120tow", "n"], ["p", "t"], ["\u0120be", "ing"], ["re", "ss"], ["I", "t"], ["ar", "y"], ["\u0120every", "one"], ["\u0120m", "or"], ["\u0120ha", "t"], ["re", "e"], ["\u0120a", "d"], ["\u0120re", "m"], ["\u0120sto", "pped"], ["\u0120g", "ame"], ["\u0120m", "et"], ["\u0120call", "ed"], ["\u0120w", "o"], ["N", "ow"], ["H", "e"], ["C", "an"], ["uff", "y"], ["\u0120c", "a"], ["\u0120s", "oft"], ["\u0120an", "gry"], ["\u0120tr", "uck"], ["\u0120op", "en"], ["\u0120c", "ry"], ["\u0120y", "ummy"], ["W", "hen"], ["g", "er"], ["b", "y"], ["\u0120b", "ed"], ["\u0120K", "itty"], ["\u0120L", "et"], ["v", "ent"], ["\u0120lo", "st"], ["\u0120ke", "ep"], ["\u0120wa", "rm"], ["\u0120S", "ally"], ["\u0120bra", "ve"], ["\u0120W", "h"], ["\u0120m", "ouse"], ["\u0120could", "n"], ["\u0120at", "e"], ["s", "o"], ["\u0120d", "e"], ["f", "ore"], ["\u0120wat", "ch"], ["dd", "ed"], ["\u0120al", "so"], ["\u0120", "R"], ["\u0120f", "ell"], ["\u0120do", "ll"], ["\u0120le", "ave"], ["is", "hed"], ["\u0120tw", "o"], ["\u0120fa", "ce"], ["\u0120gre", "en"], ["g", "an"], ["is", "s"], ["\u0120no", "ise"], ["\u0120flow", "ers"], ["Wh", "at"], ["b", "it"], ["ir", "st"], ["b", "le"], ["ow", "l"], ["\u0120w", "here"], ["ab", "bit"], ["o", "ck"], ["\u0120so", "on"], ["se", "lf"], ["l", "uffy"], ["ill", "y"], ["\u0120he", "ar"], ["\u0120sl", "ide"], ["\u0120r", "abbit"], ["\u0120be", "fore"], ["\u0120p", "us"], ["\u0120sa", "t"], ["\u0120ho", "le"], ["ir", "rel"], ["ir", "ed"], ["\u0120hand", "s"], ["\u0120u", "se"], ["m", "a"], ["\u0120no", "dded"], ["\u00e2\u0122", "\u013f"], ["The", "n"], ["Th", "at"], ["\u00e2\u0122", "\u013e"], ["H", "i"], ["\u0120ke", "pt"], ["\u0120ex", "pl"], ["e", "ar"], ["\u0120squ", "irrel"], ["L", "ook"], ["\u0120p", "ain"], ["\u0120go", "ing"], ["\u0120c", "ook"], ["\u0120st", "ore"], ["\u0120bird", "s"], ["d", "ay"], ["\u0120ha", "ving"], ["\u0120s", "ing"], ["a", "z"], ["\u0120fun", "ny"], ["\u0120cat", "ch"], ["\u0120F", "luffy"], ["\u0120e", "y"], ["ay", "be"], ["u", "it"], ["ug", "ht"], ["le", "ep"], ["B", "en"], ["\u0120f", "in"], ["\u0120b", "unny"], ["\u0120b", "us"], ["\u0120C", "an"], ["\u0120b", "re"], ["\u0120fi", "x"], ["an", "ge"], ["\u0120y", "ell"], ["\u0120th", "ink"], ["u", "ch"], ["\u0120w", "r"], ["\u0120t", "ired"], ["\u0120loo", "king"], ["\u0120c", "ra"], ["\u0120", "our"], ["\u0120us", "ed"], ["t", "hing"], ["\u0120p", "ull"], ["\u0120wor", "k"], ["\u0120k", "it"], ["a", "ir"], ["\u0120", "Now"], ["W", "e"], ["\u0120wa", "it"], ["t", "ing"], ["\u0120ha", "s"], ["\u0120s", "ound"], ["\u0120j", "o"], ["\u0120be", "h"], ["\u0120th", "r"], ["\u0120other", "s"], ["\u0120po", "nd"], ["\u0120as", "k"], ["\u0120sun", "ny"], ["\u0120", "G"], ["\u0120me", "an"], ["c", "hen"], ["\u0120kit", "chen"], ["\u0120tal", "k"], ["\u0120d", "r"], ["l", "ed"], ["\u0120fl", "o"], ["n", "g"], ["em", "ber"], ["\u0120J", "o"], ["re", "w"], ["\u0120he", "ad"], ["\u0120p", "ie"], ["\u0120t", "ri"], ["\u0120f", "irst"], ["\u0120d", "if"], ["j", "oy"], ["ell", "o"], ["\u0120ey", "es"], ["H", "ello"], ["\u0120re", "al"], ["\u0120fa", "v"], ["\u0120flow", "er"], ["\u0120mom", "my"], ["\u0120", "z"], ["\u0120r", "ight"], ["\u0120m", "ess"], ["\u0120c", "on"], ["or", "n"], ["\u0120sw", "e"], ["at", "h"], ["i", "ous"], ["\u0120imp", "ort"], ["\u0120", "\u00e2\u0122\u013e"], ["\u0120co", "ld"], ["\u0120rem", "ember"], ["\u0120J", "ack"], ["\u0120v", "o"], ["\u0120d", "uck"], ["\u0120r", "ace"], ["f", "t"], ["\u0120D", "o"], ["\u0120cu", "ri"], ["\u0120sa", "nd"], ["im", "es"], ["\u0120mor", "al"], ["z", "y"], ["\u0120sh", "ared"], ["\u0120par", "ty"], ["\u0120ad", "vent"], ["\u0120en", "joy"], ["\u0120o", "kay"], ["a", "c"], ["\u0120ma", "king"], ["\u0120br", "ight"], ["A", "t"], ["\u0120import", "ant"], ["ll", "ow"], ["re", "ed"], ["\u0120h", "op"], ["ou", "nt"], ["st", "er"], ["\u0120curi", "ous"], ["\u0120wor", "ked"], ["\u0120d", "ress"], ["\u0120", "own"], ["\u0120h", "id"], ["\u0120cl", "a"], ["\u0120fav", "or"], ["\u0120y", "ard"], ["\u0120be", "gan"], ["\u0120s", "leep"], ["\u0120d", "ir"], ["\u0120favor", "ite"], ["\u0120m", "on"], ["h", "n"], ["\u0120th", "ing"], ["\u0120t", "all"], ["\u0120h", "ill"], ["\u0120", "ice"], ["W", "ow"], ["D", "on"], ["\u0120re", "st"], ["\u0120he", "re"], ["\u0120dra", "w"], ["\u0120F", "in"], ["\u0120b", "ag"], ["\u0120", "ri"], ["\u0120d", "is"], ["k", "en"], ["\u0120t", "ell"], ["\u0120wat", "ched"], ["\u0120fo", "llow"], ["\u0120mo", "ve"], ["\u0120ag", "reed"], ["q", "ue"], ["c", "o"], ["ec", "t"], ["\u0120bl", "ock"], ["ll", "y"], ["\u0120be", "l"], ["\u0120n", "ight"], ["\u0120h", "un"], ["\u0120surpr", "ise"], ["\u0120st", "op"], ["\u0120p", "ick"], ["\u0120c", "ut"], ["\u0120tre", "es"], ["\u0120h", "ot"], ["ap", "er"], ["\u0120Th", "is"], ["\u0120gra", "ss"], ["\u0120beh", "ind"], ["\u0120sh", "o"], ["A", "fter"], ["\u0120d", "ark"], ["\u0120wor", "ry"], ["\u0120vo", "ice"], ["i", "ed"], ["\u0120wal", "king"], ["\u0120flo", "or"], ["\u0120s", "ong"], ["\u0120ta", "il"], ["\u0120r", "u"], ["\u0120t", "able"], ["\u0120to", "p"], ["\u0120li", "on"], ["\u0120D", "ad"], ["\u0120for", "g"], ["\u0120far", "m"], ["\u0120swe", "et"], ["\u0120l", "ady"], ["\u0120p", "lease"], ["M", "ax"], ["fe", "re"], ["\u0120color", "s"], ["\u0120sh", "out"], ["\u0120dif", "fere"], ["\u0120re", "ad"], ["\u0120leave", "s"], ["\u0120clos", "er"], ["\u0120but", "ter"], ["\u0120turn", "ed"], ["ig", "n"], ["\u00e2\u0122", "\u013b"], ["ar", "ing"], ["\u0120w", "ood"], ["\u0120need", "ed"], ["is", "y"], ["\u0120ta", "st"], ["Wh", "y"], ["\u0120d", "el"], ["\u0120feel", "ing"], ["\u0120c", "ried"], ["er", "ed"], ["\u0120pie", "ce"], ["\u0120advent", "ure"], ["\u0120car", "s"], ["\u0120M", "r"], ["\u0120S", "uddenly"], ["\u0120do", "es"], ["\u0120differe", "nt"], ["\u0120laug", "h"], ["\u0120hun", "gry"], ["\u0120fi", "re"], ["\u0120ro", "ll"], ["S", "ue"], ["A", "nna"], ["\u0120f", "ull"], ["i", "ke"], ["b", "o"], ["\u0120A", "s"], ["\u0120yell", "ow"], ["\u0120c", "r"], ["\u0120friend", "ly"], ["\u0120pr", "in"], ["\u0120p", "aper"], ["\u0120ha", "ir"], ["\u0120sw", "ing"], ["\u0120p", "er"], ["o", "om"], ["\u0120w", "et"], ["\u0120to", "uch"], ["S", "am"], ["c", "ked"], ["\u0120fr", "uit"], ["\u0120bro", "ken"], ["\u0120Th", "at"], ["i", "ent"], ["at", "er"], ["a", "ched"], ["by", "e"], ["\u0120an", "other"], ["\u0120re", "ady"], ["\u0120climb", "ed"], ["\u0120pr", "om"], ["\u0120dan", "ce"], ["\u0120Bob", "o"], ["\u0120pret", "end"], ["\u0120list", "ened"], ["w", "here"], ["\u0120dan", "c"], ["pp", "y"], ["\u0120l", "ight"], ["\u0120sw", "im"], ["\u0120on", "ly"], ["\u0120run", "ning"], ["\u0120g", "one"], ["bb", "ed"], ["\u0120pl", "an"], ["\u0120sm", "ell"], ["s", "h"], ["S", "uddenly"], ["a", "v"], ["\u0120clo", "se"], ["S", "he"], ["il", "a"], ["\u0120block", "s"], ["\u0120am", "az"], ["\u0120J", "ane"], ["ab", "y"], ["\u0120wo", "nder"], ["nd", "ma"], ["\u0120ho", "ld"], ["S", "o"], ["\u0120wa", "ll"], ["\u0120A", "ll"], ["in", "s"], ["S", "ara"], ["\u0120se", "es"], ["\u0120re", "pl"], ["\u0120help", "ing"], ["one", "y"], ["\u0120gl", "ad"], ["\u0120p", "u"], ["\u0120sl", "ow"], ["\u0120re", "ached"], ["\u0120a", "c"], ["\u0120good", "bye"], ["\u0120Tim", "my"], ["r", "ed"], ["\u0120a", "nt"], ["\u0120be", "en"], ["\u0120f", "ight"], ["\u0120d", "ri"], ["\u0120c", "ool"], ["\u0120l", "ess"], ["\u0120pus", "hed"], ["\u0120butter", "f"], ["ic", "ed"], ["a", "f"], ["\u0120c", "ream"], ["\u0120wind", "ow"], ["M", "ia"], ["\u0120mom", "ent"], ["\u0120fa", "ir"], ["at", "her"], ["\u0120expl", "ore"], ["\u0120h", "ide"], ["\u0120", "O"], ["\u0120Every", "one"], ["\u0120mu", "st"], ["\u0120a", "r"], ["\u0120try", "ing"], ["\u0120s", "it"], ["\u0120sn", "ow"], ["\u0120b", "aby"], ["\u0120st", "uck"], ["\u0120m", "ight"], ["\u0120wa", "g"], ["\u0120per", "f"], ["\u0120nam", "e"], ["\u0120d", "one"], ["\u0120app", "le"], ["\u0120st", "e"], ["ic", "y"], ["\u0120com", "ing"], ["\u0120b", "it"], ["\u0120ch", "ild"], ["\u0120qu", "ick"], ["\u0120b", "ar"], ["iz", "ed"], ["\u0120th", "ank"], ["\u0120f", "all"], ["\u0120look", "s"], ["\u0120ball", "oon"], ["\u0120sc", "ary"], ["\u0120bu", "y"], ["\u0120w", "ished"], ["\u0120he", "ld"], ["as", "h"], ["\u0120under", "st"], ["\u0120tra", "in"], ["\u0120do", "ing"], ["\u0120dir", "ty"], ["\u0120bu", "ild"], ["\u0120d", "ream"], ["\u0120d", "in"], ["I", "n"], ["ot", "t"], ["\u0120le", "ft"], ["am", "es"], ["\u0120a", "ir"], ["av", "y"], ["a", "isy"], ["\u0120shout", "ed"], ["\u0120br", "other"], ["\u0120m", "ar"], ["\u0120w", "in"], ["ke", "y"], ["\u0120book", "s"], ["\u0120c", "ount"], ["\u0120repl", "ied"], ["\u0120t", "iny"], ["\u0120br", "an"], ["\u0120cla", "pped"], ["\u0120sp", "l"], ["\u0120wh", "y"], ["\u0120re", "ach"], ["\u0120", "owl"], ["\u0120d", "ro"], ["\u0120w", "ise"], ["\u0120pull", "ed"], ["\u0120wood", "s"], ["and", "y"], ["el", "y"], ["\u0120th", "ree"], ["'", "re"], ["\u0120gr", "ow"], ["\u0120thr", "ough"], ["\u0120cl", "oud"], ["\u0120s", "ure"], ["\u0120ch", "air"], ["\u0120butterf", "ly"], ["\u0120tre", "at"], ["\u0120sw", "am"], ["\u0120la", "nd"], ["\u0120se", "en"], ["as", "k"], ["\u0120m", "at"], ["\u0120cu", "p"], ["out", "h"], ["\u0120somet", "imes"], ["\u0120m", "outh"], ["\u0120ne", "st"], ["\u0120p", "ink"], ["i", "x"], ["\u0120c", "re"], ["\u0120f", "ill"], ["\u0120j", "ob"], ["O", "kay"], ["p", "h"], ["\u0120gra", "bbed"], ["p", "e"], ["\u0120color", "ful"], ["udd", "y"], ["ou", "p"], ["ie", "ld"], ["\u0120jo", "in"], ["ar", "t"], ["\u0120pl", "ant"], ["\u0120less", "on"], ["\u0120The", "re"], ["ow", "er"], ["\u0120stay", "ed"], ["\u0120big", "ger"], ["\u0120con", "t"], ["\u0120remember", "ed"], ["\u0120pain", "t"], ["\u0120wa", "ved"], ["\u0120A", "fter"], ["d", "s"], ["Th", "is"], ["\u0120Mom", "my"], ["O", "h"], ["ro", "om"], ["\u0120wa", "ited"], ["\u0120cl", "ot"], ["\u0120b", "lew"], ["\u0120clot", "hes"], ["\u0120enjoy", "ed"], ["\u0120ca", "st"], ["\u0120quick", "ly"], ["\u0120bro", "ke"], ["\u0120not", "iced"], ["c", "le"], ["J", "o"], ["\u0120s", "et"], ["d", "e"], ["\u0120any", "thing"], ["\u0120like", "s"], ["at", "ion"], ["\u0120g", "ames"], ["\u0120picture", "s"], ["\u0120m", "iss"], ["uck", "y"], ["\u0120g", "if"], ["\u0120he", "avy"], ["\u0120al", "one"], ["\u0120p", "en"], ["\u0120g", "ent"], ["\u0120se", "a"], ["ri", "es"], ["\u0120mu", "s"], ["\u0120t", "ight"], ["\u0120wor", "ld"], ["\u0120b", "ott"], ["\u0120sp", "ot"], ["d", "er"], ["\u0120y", "ear"], ["\u0120p", "ot"], ["\u0120ho", "pped"], ["a", "ught"], ["as", "ure"], ["\u0120turn", "s"], ["t", "on"], ["H", "er"], ["or", "m"], ["\u0120p", "at"], ["\u0120a", "rm"], ["\u0120th", "rew"], ["\u0120m", "ix"], ["l", "c"], ["\u0120b", "ike"], ["\u0120him", "self"], ["ct", "or"], ["\u0120w", "on"], ["\u0120B", "uddy"], ["\u0120every", "where"], ["\u0120tow", "er"], ["\u0120wh", "ite"], ["L", "ucy"], ["le", "ss"], ["\u0120follow", "ed"], ["am", "p"], ["\u0120com", "p"], ["\u0120r", "ide"], ["\u0120j", "u"], ["r", "ow"], ["\u0120ke", "y"], ["m", "an"], ["\u0120bl", "ack"], ["\u0120wr", "ong"], ["B", "ob"], ["o", "lly"], ["\u0120Wh", "at"], ["\u0120j", "e"], ["ap", "e"], ["z", "e"], ["\u0120make", "s"], ["S", "pot"], ["are", "nt"], ["\u0120bre", "ak"], ["th", "y"], ["\u0120mus", "ic"], ["\u0120del", "ic"], ["\u0120forg", "ot"], ["\u0120de", "ep"], ["u", "ed"], ["e", "e"], ["\"", "."], ["\u0120cast", "le"], ["\u0120be", "e"], ["\u0120we", "ar"], ["is", "ter"], ["ce", "ss"], ["n", "er"], ["\u0120po", "l"], ["\u0120p", "arent"], ["ve", "s"], ["\u0120e", "m"], ["\u0120D", "aisy"], ["D", "o"], ["\u0120r", "ound"], ["i", "et"], ["\u0120h", "it"], ["\u0120", "ve"], ["an", "g"], ["ou", "n"], ["\u0120qu", "iet"], ["\u0120mon", "ster"], ["ull", "y"], ["\u0120danc", "ed"], ["\u0120v", "is"], ["\u0120want", "s"], ["\u0120n", "ap"], ["an", "ce"], ["\u0120Jo", "hn"], ["\u0120d", "ry"], ["z", "z"], ["\u0120st", "u"], ["\u0120b", "or"], ["\u0120underst", "and"], ["\u0120tal", "ked"], ["o", "s"], ["r", "ot"], ["ro", "ss"], ["f", "ully"], ["\u0120le", "af"], ["\u0120fast", "er"], ["re", "n"], ["t", "s"], ["\u0120b", "owl"], ["\u0120br", "ought"], ["\u0120le", "g"], ["itt", "en"], ["\u0120cook", "ies"], ["\u0120s", "ide"], ["\u0120sm", "art"], ["\u0120s", "ister"], ["F", "rom"], ["\u0120re", "l"], ["\u0120po", "in"], ["\u0120re", "s"], ["\u0120m", "um"], ["\u0120In", "side"], ["c", "y"], ["ard", "s"], ["H", "is"], ["\u0120happ", "en"], ["\u0120se", "c"], ["\u0120bran", "ch"], ["ed", "dy"], ["\u0120we", "ll"], ["\u0120some", "one"], ["\u0120sh", "aring"], ["\u0120rock", "s"], ["\u0120but", "ton"], ["\u0120fin", "ished"], ["\u0120re", "ally"], ["\u0120s", "ign"], ["\u0120fly", "ing"], ["\u0120cont", "in"], ["en", "ce"], ["\u0120M", "aybe"], ["\u0120fo", "x"], ["i", "pp"], ["\u0120s", "illy"], ["\u0120wor", "ried"], ["\u0120r", "a"], ["\u0120vis", "it"], ["g", "y"], ["\u0120L", "ila"], ["\u0120", "que"], ["\u0120T", "o"], ["\u0120Jo", "e"], ["\u0120din", "ner"], ["\u0120to", "day"], ["\u0120sec", "ret"], ["\u0120e", "le"], ["\u0120g", "u"], ["\u0120So", "on"], ["\u0120every", "thing"], ["\u0120dan", "ger"], ["\u0120be", "ach"], ["\u0120e", "l"], ["Jo", "hn"], ["\u0120perf", "ect"], ["\u0120smile", "s"], ["\u0120w", "ish"], ["\u0120sh", "in"], ["\u0120fill", "ed"], ["a", "st"], ["\u0120p", "ig"], ["\u0120Sara", "h"], ["\u0120we", "lc"], ["\u0120eat", "ing"], ["\u0120ri", "ver"], ["\u0120sa", "ng"], ["\u0120piece", "s"], ["\u0120A", "t"], ["\u0120f", "ur"], ["\u0120child", "ren"], ["\u0120p", "udd"], ["\u0120contin", "ued"], ["\u0120E", "m"], ["\u0120g", "i"], ["\u0120el", "se"], ["\u0120b", "ite"], ["\u0120k", "ing"], ["\u0120e", "ar"], ["\u0120prom", "ised"], ["\u0120f", "ield"], ["Wh", "ile"], ["\u0120parent", "s"], ["\u0120care", "fully"], ["\u0120real", "ized"], ["\u0120f", "ree"], ["\u0120sn", "ack"], ["\u0120cre", "at"], ["e", "ad"], ["\u0120or", "ange"], ["itt", "ing"], ["\u0120j", "ar"], ["im", "i"], ["\u0120sp", "r"], ["\u0120dr", "ink"], ["\u0120dra", "g"], ["M", "aybe"], ["\u0120y", "es"], ["st", "ead"], ["\u0120mu", "d"], ["J", "ust"], ["\u0120c", "ow"], ["\u0120roll", "ed"], ["\u0120bl", "ank"], ["\u0120cry", "ing"], ["\u0120laug", "hing"], ["\u0120B", "illy"], ["A", "my"], ["\u0120wor", "ds"], ["\u0120s", "oup"], ["\u0120do", "ctor"], ["\u0120p", "urp"], ["se", "s"], ["\u0120blank", "et"], ["\u0120sn", "ake"], ["\u0120", "Z"], ["ck", "et"], ["\u0120gra", "ndma"], ["\u0120amaz", "ing"], ["\u0120br", "own"], ["\u0120sa", "il"], ["or", "d"], ["\u0120c", "andy"], ["\u0120en", "ough"], ["\u0120b", "ath"], ["\u0120b", "oun"], ["\u0120gif", "t"], ["\u0120thr", "ow"], ["\u0120p", "et"], ["\u0120bott", "le"], ["\u0120fair", "y"], ["\u0120with", "out"], ["F", "in"], ["\u0120purp", "le"], ["i", "ch"], ["\u0120l", "on"], ["\u0120ask", "s"], ["on", "s"], ["\u0120bar", "ked"], ["ch", "ool"], ["\u0120wag", "ged"], ["\u0120cra", "b"], ["\u0120lon", "ely"], ["\u0120mo", "ved"], ["i", "re"], ["\u0120w", "he"], ["us", "ed"], ["f", "ort"], ["\u0120mon", "key"], ["\u0120clos", "ed"], ["\u0120mor", "ning"], [".", "\u00e2\u0122\u013f"], ["i", "ver"], ["\u0120danger", "ous"], ["is", "es"], ["as", "ed"], ["u", "b"], ["\u0120s", "chool"], ["un", "ch"], ["\u0120welc", "ome"], ["\u0120at", "t"], ["g", "g"], ["\u0120m", "oney"], ["\u0120own", "er"], ["\u0120l", "ake"], ["\u0120s", "itting"], ["\u0120G", "ra"], ["\u0120get", "ting"], ["\u0120pa", "w"], ["e", "y"], ["at", "ed"], ["\u0120sh", "op"], ["e", "re"], ["!", "\u00e2\u0122\u013f"], ["\u0120hig", "her"], ["\u0120sho", "es"], ["\u0120str", "ange"], ["us", "h"], ["\u0120li", "ving"], ["\u0120tre", "asure"], ["\u0120ma", "il"], ["\u0120app", "les"], ["\u0120", "-"], ["\u0120st", "re"], ["\u0120tal", "king"], ["\u0120shin", "ing"], ["\u0120p", "re"], ["\u0120pa", "st"], ["\u0120m", "other"], ["al", "thy"], ["\u0120Tom", "my"], ["\u0120C", "h"], ["un", "a"], ["\u0120e", "gg"], ["\u0120sm", "o"], ["i", "ble"], ["m", "e"], ["\u0120B", "l"], ["\u0120ro", "ad"], ["\u0120run", "s"], ["\u0120che", "e"], ["Mom", "my"], ["\u0120m", "ad"], ["\u0120co", "at"], ["ve", "l"], ["bo", "ard"], ["\u0120pa", "ss"], ["\u0120t", "eddy"], ["\u0120ca", "ught"], ["\u0120M", "imi"], ["\u0120w", "ings"], ["f", "ish"], ["\u0120no", "se"], ["\u0120delic", "ious"], ["\u0120st", "and"], ["\u0120l", "etter"], ["\u0120b", "uck"], ["\u0120bel", "ie"], ["\u0120drag", "on"], ["ck", "s"], ["\u0120f", "an"], ["\u0120year", "s"], ["\u0120b", "at"], ["s", "et"], ["\u0120br", "ing"], ["ask", "et"], ["\u0120sa", "me"], ["o", "l"], ["\u0120se", "ar"], ["a", "pp"], ["\u0120b", "asket"], ["a", "il"], ["\u0120star", "t"], ["\u0120pudd", "le"], ["ell", "a"], ["c", "hes"], ["\u0120think", "s"], ["\u0120p", "h"], ["ig", "h"], ["it", "ch"], ["\u0120co", "ll"], ["\u0120sc", "ream"], ["ig", "g"], ["is", "k"], ["\u0120day", "s"], ["\u0120farm", "er"], ["ar", "m"], ["\u0120sw", "ings"], ["\u0120p", "ill"], ["\u0120fin", "ally"], ["\u0120m", "ine"], ["\u0120to", "m"], ["\u0120k", "ite"], ["s", "w"], ["b", "ow"], ["\u0120an", "sw"], ["\u0120hop", "ed"], ["\u0120wh", "ist"], ["\u0120pus", "h"], ["\u0120f", "it"], ["\u0120tast", "y"], ["e", "my"], ["\u0120her", "self"], ["\u0120w", "ore"], ["\u0120gent", "le"], ["\u0120tr", "ou"], ["in", "ed"], ["\u0120sing", "ing"], ["\u0120cr", "ay"], ["\u0120h", "or"], ["u", "p"], ["\u0120ar", "ri"], ["\u0120st", "one"], ["\u0120v", "ill"], ["\u0120bus", "h"], ["\u0120ch", "o"], ["\u0120sh", "ap"], ["\u0120te", "ach"], ["ph", "ant"], ["P", "lease"], ["i", "er"], ["\u0120be", "ll"], ["\u0120dro", "pped"], ["\u0120car", "rot"], ["\u0120J", "en"], ["ll", "ie"], ["am", "a"], ["\u0120hid", "ing"], ["aught", "y"], ["ra", "ct"], ["\u0120n", "aughty"], ["\u0120wo", "ke"], ["is", "a"], ["isk", "ers"], ["\u0120p", "ers"], ["\u0120rain", "bow"], ["\u0120bel", "ong"], ["\u0120b", "en"], ["s", "y"], ["\u0120p", "ile"], ["\u0120c", "our"], ["'", "ll"], ["\u0120te", "ac"], ["s", "c"], ["\u0120tw", "ins"], ["\u0120sp", "in"], ["O", "K"], ["\u0120che", "ered"], ["\u0120shap", "es"], ["\u0120b", "ow"], ["\u0120sa", "ck"], ["\u0120see", "m"], ["\u0120ele", "phant"], ["\u0120she", "ll"], ["er", "ry"], ["\u0120m", "in"], ["\u0120gre", "w"], ["\u0120sp", "oon"], ["\u0120cour", "se"], ["\u0120to", "uc"], ["\u0120l", "unch"], ["\u0120sh", "ook"], ["\u0120stre", "et"], ["J", "ack"], ["\u0120pl", "ane"], ["\u0120ju", "ice"], ["ir", "th"], ["\u0120ro", "pe"], ["irth", "day"], ["i", "pped"], ["\u0120j", "oy"], ["\u0120Bl", "ue"], ["\u0120pu", "ppy"], ["\u0120cut", "e"], ["\u0120se", "ed"], ["f", "used"], ["\u0120arri", "ved"], ["\u0120ab", "le"], ["\u0120vill", "age"], ["\u0120chee", "se"], ["\u0120fore", "ver"], ["e", "b"], ["\u0120n", "ut"], ["\u0120f", "ence"], ["\u0120ro", "b"], ["b", "all"], ["id", "ge"], ["G", "ood"], ["\u0120wonder", "ful"], ["\u0120sp", "o"], ["a", "le"], ["\u0120pr", "ob"], ["\u0120d", "es"], ["\u0120in", "c"], ["\u0120touc", "hed"], ["\u0120wa", "r"], ["\u0120fe", "w"], ["ll", "a"], ["\u0120sound", "s"], ["\u0120F", "red"], ["\u0120bre", "ad"], ["\u0120p", "ower"], ["\u0120Wh", "iskers"], ["\u0120Em", "ma"], ["um", "b"], ["co", "l"], ["le", "m"], ["\u0120e", "as"], ["il", "k"], ["\u0120b", "irthday"], ["\u0120sh", "ake"], ["\u0120car", "ry"], ["\u0120ben", "ch"], ["\u0120mo", "st"], ["\u0120bug", "s"], ["\u0120prob", "lem"], ["\u0120teac", "her"], ["a", "ss"], ["b", "r"], ["\u0120Th", "ank"]], "special_tokens": {"<|endoftext|>": 0}, "byte_level": true, "note": "GPT-2 byte-level BPE. storybyte_tokenizer_hf.json is the authoritative encoder."}